0301F9FAEB06040203F6E7FD0E08FE02
EB06040203F6E7FD0E08FE0204FEF922
03F6E7FD0E08FE0204FEF9221FFDFC03
0E08FE0204FEF9221FFDFC0303030117
0300F404F8F2FC0303F9FF03FC060302
F8F2FC0303F9FF03FC06030203FE0E00
03F9FF03FC06030203FE0E00EF060302
FC06030203FE0E00EF060302030008F8
00FF03FAF8FEFF0001030CFF0403FF00
F8FEFF0001030CFF0403FF00000C1700
01030CFF0403FF00000C1700F4100500
0403FF00000C1700F410050000010706
0101FDF00705F7FE01FFFCFBE7F6FAFF
0705F7FE01FFFCFBE7F6FAFF0101120B
01FFFCFBE7F6FAFF0101120BF2F0F900
E7F6FAFF0101120BF2F0F9000103141B
02FEF805FCFC010502F906FC00130A03
FCFC010502F906FC00130A0302FF01FB
02F906FC00130A0302FF01FB0B210801
00130A0302FF01FB0B21080102F2FB18
0000040000180F0200FC080300FC0501
00180F0200FC080300FC0501000003FB
00FC080300FC0501000003FBEEECF600
00FC0501000003FBEEECF60000FCFE07
FF000005FF010601FF0201FEF9F50601
FF010601FF0201FEF9F50601FFF5F9F4
FF0201FEF9F50601FFF5F9F402F6FDFF
F9F50601FFF5F9F402F6FDFFFFF4FB01
020304FE06FEF600020B0AFAFA0F0701
06FEF600020B0AFAFA0F07010205F4F2
020B0AFAFA0F07010205F4F20E0A0802
FA0F07010205F4F20E0A080202F6E6FA
0000FDF704F8FE020101FCFDF9F80001
04F8FE020101FCFDF9F800010000FDFF
0101FCFDF9F800010000FDFFFC040701
F9F800010000FDFFFC040701010202F8
FFFEF5F4F1EAF5FEFF02F5F9F7F1FCFF
F1EAF5FEFF02F5F9F7F1FCFFFFFF120A
FF02F5F9F7F1FCFFFFFF120A060B06FF
F7F1FCFFFFFF120A060B06FFFFFB0C06
